be8aa0f4
3da68a6d
bec6a5ae
3e6696fd
beccd151
3edcbe63
bd74a8a6
be3c7021
bea09ed6
3ed609c5
be7b6986
bf933ba5
3e9b039c
be42f09d
3e441ded
bf9c4dbc
3f8ce475
3d5d04fe
bf0583b6
be148977
3eb73095
3e8841df
bb343612
bf7ea19b
3e8251f1
3f9379be
40000758
bf614ee2
beb74e37
3f3037e1
3ecda38a
3ec0216e
bf5a92cc
3f924d56
3f1bf781
3f597d0e
3f383e42
bf57c923
bf813626
3f16eb5d
be171a1e
3f7d92e9
be916fdb
bf27b3d0
3f3662ad
3f072a66
3e809f5e
be44cdcf
3dd9a68b
bea59878
3f0fac2b
be3b2766
3f91943e
3fc02da5
3f690b60
bedb76bb
bf600b7d
bf0a06d4
3f17a0fa
3f1e10f0
bf5351e5
bf8c969b
3d27243a
be325786
3ea9081e
3e72933f
3fb11c8d
3ed195bf
3ecd654a
be9251ac
3e964a29
bfd60850
3f8d7bf5
3e8bf699
bda80921
3f438c90
bf1fb9b9
3ba88a61
bf20f738
bf6ddddf
beab8cdc
3ed0b011
3eddac58
beb2f67e
be8289c7
be161f5f
3da5fb86
bcfa1613
be6d894e
3ee003e1
3ee25493
4050ce02
3fb7ea5e
4004cc28
3f4526e0
3f1d100d
3f783650
bf258d0e
40331a24
be4f4364
c037aff3
3f812b42
3fa6f786
bd3cb03f
3edb8d9e
be3523b3
bfceeed1
bf83bcb3
3ea809b3
40564308
3f3c7513
be9b1b4a
3f0dfad4
3dc90975
bffe039f
be0d2158
bf83d8e5
3e987678
beb7fb03
3f90d37a
3ea6495e
bf47bf1e
bfd8b51a
3d53049d
bd08f15c
be64ca9c
3eb51f63
bfaec0d4
bef36b64
c01c87bc
3fc4bf42
be45991f
3f68551b
3b3de51e
bf6397b7
3e956dc9
40404988
bea3f99c
bd823bbb
bd1cc5d6
bf2d692f
beacc2bf
3f7b1bed
c00827a5
be6a3bb3
3f3ab8ac
c04a3949
bf983181
3e6e624f
3f895fa0
3f0d9d21
3e27f95a
bfdf6a0b
3e650f0a
3e0bdde8
bed9ac72
3e2d1705
bf80fced
bfa09c76
3f752973
be3c3511
3e8c992f
be01b21b
bf938925
c0b8c55f
401338e1
be088511
c12e6c73
3f8af1bf
40215c49
c05fc4c2
3e49ac0b
bfab17eb
3fbe0f98
3f87c106
be657fb4
c03f83b3
c0186a2c
bd350cd1
3e8e3696
3ed99d09
bff926a0
3eab888f
3fe986fb
3e07de1a
3f02c480
3fb0693e
bf4cf0d6
beeaba56
bdb50a51
3eb57da8
c08ac0bd
bf452b22
403950b6
3f99a8cb
3e9f2dd9
bf834d82
be9a99f5
be43c46b
3f298c04
bf5626d2
c02023e6
c01cc876
3fd672aa
bd95537f
bf541227
3f863993
beb31d35
3f3f0ca3
c0750d05
bf2bfbb6
bf15c281
bfab6c6d
bf8a0a38
3fc7aa37
c06a4533
bec75c69
3f389c55
bfe5d127
bfb30613
c162c6e4
c07cea77
bf413e46
3fc1ce1d
3fbedda0